000
000
000
000
010
010
010
010
001
001
001
001
011
011
011
011
002
002
002
002
012
012
012
012
003
003
003
003
013
013
013
013
004
004
004
004
014
014
014
014
005
005
005
005
015
015
015
015
006
006
006
006
016
016
016
016
007
007
007
007
017
017
017
017
008
008
008
008
018
018
018
018
009
009
009
009
019
019
019
019
00a
00a
00a
00a
01a
01a
01a
01a
00b
00b
00b
00b
01b
01b
01b
01b
00c
00c
00c
00c
01c
01c
01c
01c
00d
00d
00d
00d
01d
01d
01d
01d
00e
00e
00e
00e
01e
01e
01e
01e
00f
00f
00f
00f
01f
01f
01f
01f
